unsigned char __results_c_code_approach3_mlp_float_tflite[] = {
  0x1c, 0x00, 0x00, 0x00, 0x54, 0x46, 0x4c, 0x33, 0x14, 0x00, 0x20, 0x00,
  0x1c, 0x00, 0x18, 0x00, 0x14, 0x00, 0x10, 0x00, 0x0c, 0x00, 0x00, 0x00,
  0x08, 0x00, 0x04, 0x00, 0x14, 0x00, 0x00, 0x00, 0x1c, 0x00, 0x00, 0x00,
  0x90, 0x00, 0x00, 0x00, 0xe8, 0x00, 0x00, 0x00, 0x14, 0x05, 0x00, 0x00,
  0x24, 0x05, 0x00, 0x00, 0x74, 0x09, 0x00, 0x00, 0x03, 0x00, 0x00, 0x00,
  0x01, 0x00, 0x00, 0x00, 0x10, 0x00, 0x00, 0x00, 0x00, 0x00, 0x0a, 0x00,
  0x10, 0x00, 0x0c, 0x00, 0x08, 0x00, 0x04, 0x00, 0x0a, 0x00, 0x00, 0x00,
  0x0c, 0x00, 0x00, 0x00, 0x1c, 0x00, 0x00, 0x00, 0x38, 0x00, 0x00, 0x00,
  0x0f, 0x00, 0x00, 0x00, 0x73, 0x65, 0x72, 0x76, 0x69, 0x6e, 0x67, 0x5f,
  0x64, 0x65, 0x66, 0x61, 0x75, 0x6c, 0x74, 0x00, 0x01, 0x00, 0x00, 0x00,
  0x04, 0x00, 0x00, 0x00, 0x98, 0xff, 0xff, 0xff, 0x07, 0x00, 0x00, 0x00,
  0x04, 0x00, 0x00, 0x00, 0x07, 0x00, 0x00, 0x00, 0x64, 0x65, 0x6e, 0x73,
  0x65, 0x5f, 0x31, 0x00, 0x01, 0x00, 0x00, 0x00, 0x04, 0x00, 0x00, 0x00,
  0xd2, 0xfa, 0xff, 0xff, 0x04, 0x00, 0x00, 0x00, 0x0b, 0x00, 0x00, 0x00,
  0x64, 0x65, 0x6e, 0x73, 0x65, 0x5f, 0x69, 0x6e, 0x70, 0x75, 0x74, 0x00,
  0x02, 0x00, 0x00, 0x00, 0x34, 0x00, 0x00, 0x00, 0x04, 0x00, 0x00, 0x00,
  0xdc, 0xff, 0xff, 0xff, 0x0a, 0x00, 0x00, 0x00, 0x04, 0x00, 0x00, 0x00,
  0x13, 0x00, 0x00, 0x00, 0x43, 0x4f, 0x4e, 0x56, 0x45, 0x52, 0x53, 0x49,
  0x4f, 0x4e, 0x5f, 0x4d, 0x45, 0x54, 0x41, 0x44, 0x41, 0x54, 0x41, 0x00,
  0x08, 0x00, 0x0c, 0x00, 0x08, 0x00, 0x04, 0x00, 0x08, 0x00, 0x00, 0x00,
  0x09, 0x00, 0x00, 0x00, 0x04, 0x00, 0x00, 0x00, 0x13, 0x00, 0x00, 0x00,
  0x6d, 0x69, 0x6e, 0x5f, 0x72, 0x75, 0x6e, 0x74, 0x69, 0x6d, 0x65, 0x5f,
  0x76, 0x65, 0x72, 0x73, 0x69, 0x6f, 0x6e, 0x00, 0x0b, 0x00, 0x00, 0x00,
  0x28, 0x04, 0x00, 0x00, 0x20, 0x04, 0x00, 0x00, 0x00, 0x04, 0x00, 0x00,
  0xc0, 0x03, 0x00, 0x00, 0x70, 0x01, 0x00, 0x00, 0xa0, 0x00, 0x00, 0x00,
  0x98, 0x00, 0x00, 0x00, 0x90, 0x00, 0x00, 0x00, 0x88, 0x00, 0x00, 0x00,
  0x68, 0x00, 0x00, 0x00, 0x04, 0x00, 0x00, 0x00, 0x76, 0xfb, 0xff, 0xff,
  0x04, 0x00, 0x00, 0x00, 0x54, 0x00, 0x00, 0x00, 0x0c, 0x00, 0x00, 0x00,
  0x08, 0x00, 0x0e, 0x00, 0x08, 0x00, 0x04, 0x00, 0x08, 0x00, 0x00, 0x00,
  0x10, 0x00, 0x00, 0x00, 0x24, 0x00, 0x00, 0x00, 0x00, 0x00, 0x06, 0x00,
  0x08, 0x00, 0x04, 0x00, 0x06, 0x00, 0x00, 0x00, 0x04, 0x00, 0x00, 0x00,
  0x00, 0x00, 0x00, 0x00, 0x00, 0x00, 0x0a, 0x00, 0x10, 0x00, 0x0c, 0x00,
  0x08, 0x00, 0x04, 0x00, 0x0a, 0x00, 0x00, 0x00, 0x02, 0x00, 0x00, 0x00,
  0x02, 0x00, 0x00, 0x00, 0x04, 0x00, 0x00, 0x00, 0x06, 0x00, 0x00, 0x00,
  0x32, 0x2e, 0x31, 0x33, 0x2e, 0x30, 0x00, 0x00, 0xd6, 0xfb, 0xff, 0xff,
  0x04, 0x00, 0x00, 0x00, 0x10, 0x00, 0x00, 0x00, 0x31, 0x2e, 0x35, 0x2e,
  0x30, 0x00, 0x00, 0x00, 0x00, 0x00, 0x00, 0x00, 0x00, 0x00, 0x00, 0x00,
  0x4c, 0xf8, 0xff, 0xff, 0x50, 0xf8, 0xff, 0xff, 0x54, 0xf8, 0xff, 0xff,
  0xfe, 0xfb, 0xff, 0xff, 0x04, 0x00, 0x00, 0x00, 0xc0, 0x00, 0x00, 0x00,
  0xb4, 0xd3, 0x3b, 0x3e, 0x36, 0x91, 0xc3, 0x40, 0x29, 0x8c, 0x52, 0x40,
  0xa0, 0x8c, 0x9e, 0xc2, 0xf1, 0x61, 0x08, 0xc1, 0x1f, 0xbf, 0x57, 0xbe,
  0xad, 0x87, 0xa4, 0x40, 0xd8, 0x85, 0x2d, 0x3d, 0x50, 0xcf, 0xa4, 0xbe,
  0x64, 0xa1, 0x11, 0x3f, 0xde, 0x36, 0x20, 0xc0, 0xa1, 0x74, 0xa8, 0xc0,
  0xc8, 0xe1, 0xbe, 0x3e, 0xfd, 0x79, 0x95, 0x3f, 0xf6, 0x66, 0x90, 0xc0,
  0x13, 0xca, 0x85, 0x3f, 0x64, 0x11, 0xb8, 0xbf, 0xc7, 0x57, 0x37, 0x3e,
  0xd2, 0xdb, 0x5f, 0xc0, 0xab, 0x57, 0x90, 0x3e, 0xaa, 0x39, 0x59, 0xbe,
  0xff, 0xb2, 0x1d, 0x40, 0x88, 0x67, 0x4c, 0x3f, 0xb5, 0xb1, 0xb9, 0xc0,
  0x3a, 0x83, 0x9f, 0xbd, 0x6c, 0x12, 0xfd, 0xbf, 0xcb, 0x87, 0xa4, 0xc1,
  0x37, 0xfa, 0xf8, 0x3e, 0x76, 0xd4, 0x41, 0x3d, 0x21, 0xd3, 0x9b, 0x3d,
  0x45, 0xa9, 0xaf, 0x3f, 0xf5, 0x12, 0xcf, 0x3d, 0x80, 0xca, 0x2f, 0xbd,
  0x3e, 0xc9, 0x51, 0xc0, 0x76, 0x19, 0x35, 0xbf, 0x63, 0x38, 0x81, 0x3f,
  0x42, 0xff, 0xda, 0xbe, 0xa7, 0xa5, 0x83, 0xbf, 0x0b, 0xbb, 0x7e, 0xc1,
  0x13, 0x23, 0x33, 0xc0, 0xa0, 0xf8, 0x9f, 0x3f, 0x9f, 0xa8, 0xbd, 0xbd,
  0x95, 0xfd, 0x29, 0xc0, 0xb6, 0x51, 0xea, 0x3d, 0xf2, 0x5d, 0x24, 0x3e,
  0x09, 0x80, 0x29, 0xc2, 0xf0, 0xc1, 0x42, 0xbf, 0xe0, 0x5d, 0xdb, 0x3c,
  0xca, 0xfc, 0xff, 0xff, 0x04, 0x00, 0x00, 0x00, 0x40, 0x02, 0x00, 0x00,
  0x95, 0x9f, 0xd9, 0xbe, 0xdd, 0x28, 0x54, 0xbd, 0x52, 0x92, 0x96, 0xbe,
  0x9a, 0x94, 0x62, 0x3e, 0x3b, 0x95, 0x5f, 0x3e, 0x08, 0x87, 0x20, 0xbf,
  0x02, 0xa5, 0x6e, 0x3e, 0x5a, 0x1e, 0x2c, 0x3e, 0xc7, 0x81, 0x1e, 0xbe,
  0x91, 0x1f, 0x95, 0xbe, 0x73, 0x71, 0x62, 0x3d, 0xaf, 0x9b, 0x43, 0xbe,
  0xfe, 0x68, 0xe3, 0x3e, 0x20, 0xca, 0x88, 0xbd, 0x3c, 0x63, 0xf2, 0xbf,
  0xbb, 0x7e, 0xfd, 0xbf, 0xc3, 0x55, 0x00, 0xc0, 0x8b, 0xd6, 0xde, 0xbf,
  0x22, 0x9b, 0xf2, 0xbf, 0xcb, 0x24, 0xec, 0x3f, 0x10, 0x68, 0xcb, 0x40,
  0x94, 0x35, 0xb5, 0xbf, 0x46, 0xce, 0x41, 0x41, 0x83, 0x27, 0x54, 0xbe,
  0x5a, 0x20, 0x64, 0xc0, 0xf9, 0x64, 0xc2, 0xc0, 0x3f, 0x7c, 0xba, 0xc0,
  0x27, 0x11, 0x38, 0xc1, 0x3d, 0x72, 0xfa, 0x3f, 0x51, 0x2c, 0x44, 0x40,
  0x2a, 0xd2, 0x8f, 0x3f, 0x4e, 0x4c, 0x1f, 0xc0, 0x13, 0x5f, 0x0d, 0xc0,
  0x5c, 0x8c, 0x69, 0x3e, 0xe3, 0x16, 0x72, 0xc0, 0x24, 0x04, 0x48, 0x40,
  0x28, 0x67, 0x22, 0x40, 0xcc, 0xfe, 0x1d, 0x40, 0x72, 0xcf, 0x77, 0x3e,
  0x67, 0x68, 0xc5, 0x3e, 0x12, 0x92, 0x3f, 0x40, 0xa1, 0xa6, 0x80, 0x40,
  0xcc, 0x19, 0xb4, 0x3e, 0xb6, 0xbb, 0x18, 0xc0, 0x11, 0x88, 0x89, 0xbf,
  0x39, 0xa1, 0x5d, 0x40, 0x20, 0x61, 0x0e, 0xc1, 0x6d, 0x6e, 0xa3, 0x3f,
  0xb1, 0xa7, 0x6b, 0x3f, 0x08, 0x41, 0x08, 0x3f, 0x1f, 0xe5, 0x4a, 0xbf,
  0x38, 0xe3, 0x7b, 0xbf, 0x92, 0x81, 0xda, 0xbe, 0x82, 0x64, 0x13, 0x3e,
  0x0a, 0x1d, 0x1e, 0xc0, 0x89, 0x8d, 0x51, 0x40, 0xd4, 0xc3, 0x8d, 0x40,
  0x52, 0xcf, 0x83, 0xbf, 0xe7, 0x00, 0x17, 0x41, 0xe7, 0xfb, 0x4f, 0x3f,
  0x08, 0xb2, 0x0e, 0xbe, 0xeb, 0x37, 0x0a, 0xbf, 0x14, 0x80, 0xc3, 0xbe,
  0x37, 0xc8, 0xad, 0xbc, 0x92, 0x81, 0xa2, 0xbd, 0x6f, 0x2b, 0x43, 0x3d,
  0xf4, 0x1c, 0xbb, 0xbd, 0x5b, 0x5b, 0xb2, 0x3e, 0x8e, 0xc9, 0x88, 0xbe,
  0x34, 0x3c, 0xb7, 0xbe, 0x2c, 0xf4, 0x1a, 0xbf, 0xd6, 0x0b, 0xed, 0xbe,
  0x9c, 0x97, 0x59, 0xbf, 0x30, 0xd1, 0x54, 0x40, 0x24, 0x16, 0xc3, 0x3f,
  0x11, 0x1f, 0x3f, 0x40, 0xbc, 0xe7, 0x5b, 0xc0, 0x3c, 0xe5, 0xba, 0x3f,
  0xb5, 0x11, 0x1a, 0xc1, 0x46, 0x38, 0x1f, 0x3f, 0x01, 0x54, 0xdf, 0xc0,
  0xff, 0xcb, 0xf2, 0xbe, 0x29, 0x5b, 0x74, 0xc1, 0xca, 0xea, 0xbc, 0xc0,
  0x3b, 0x2f, 0xbf, 0xbe, 0xd8, 0x4e, 0xd6, 0x3d, 0xb7, 0x8f, 0x01, 0xbe,
  0xed, 0x01, 0x81, 0x3e, 0xfb, 0xd8, 0xd3, 0xbe, 0x90, 0x98, 0x12, 0xbf,
  0xa0, 0x60, 0xd2, 0xbe, 0x5f, 0x8c, 0x9d, 0x3e, 0x12, 0x07, 0xf1, 0xbe,
  0x5b, 0xde, 0x5b, 0x3e, 0xfd, 0x84, 0x7f, 0xbe, 0x93, 0xf3, 0xbd, 0xbe,
  0x30, 0x79, 0x1a, 0xbe, 0x33, 0x31, 0xdb, 0xbc, 0x00, 0x86, 0xce, 0x3d,
  0x98, 0x9a, 0x94, 0xbe, 0x30, 0xe6, 0x97, 0xbd, 0xff, 0xb8, 0xdd, 0xbe,
  0x13, 0xec, 0x5a, 0x3d, 0x24, 0x2c, 0xb1, 0xbe, 0xe0, 0x74, 0x51, 0x3d,
  0x4e, 0x1b, 0x5b, 0xbe, 0x1c, 0x07, 0x26, 0x3c, 0xd9, 0xb8, 0xd9, 0x3e,
  0xc0, 0xc4, 0x84, 0xbf, 0xf6, 0xec, 0x89, 0xbf, 0x4c, 0xc6, 0x19, 0x41,
  0x5a, 0xda, 0xa7, 0xc1, 0x09, 0x26, 0x91, 0x3e, 0x14, 0x87, 0x1d, 0xbf,
  0x6e, 0x7d, 0x94, 0x3f, 0x9e, 0x53, 0xe8, 0xc1, 0x51, 0x55, 0xb6, 0x3f,
  0xd1, 0x82, 0x10, 0x40, 0xb8, 0x72, 0x81, 0xbe, 0x45, 0x8d, 0x10, 0xc0,
  0x62, 0x2a, 0x0e, 0xbf, 0xb2, 0x5f, 0xb9, 0x3d, 0x52, 0x00, 0xda, 0xc2,
  0x6f, 0xa6, 0xd4, 0xc0, 0x7d, 0x9c, 0x33, 0xbf, 0x4d, 0x1c, 0x3d, 0x3f,
  0x95, 0xe3, 0x3f, 0xc0, 0x0c, 0x32, 0x6c, 0xbf, 0xd6, 0xd3, 0x96, 0x3f,
  0x3b, 0x38, 0x25, 0x40, 0x9d, 0x38, 0xb9, 0xbf, 0xf7, 0x2c, 0x0a, 0xc0,
  0x6b, 0xbf, 0xa9, 0x3e, 0x77, 0x72, 0xe9, 0xbf, 0x9a, 0x7e, 0x99, 0x40,
  0xaa, 0x84, 0x10, 0x40, 0xe5, 0x4c, 0x14, 0x3f, 0xf5, 0x10, 0xd1, 0xbe,
  0x15, 0xd6, 0x36, 0x40, 0xa5, 0x31, 0x88, 0xc0, 0xd5, 0x51, 0xa2, 0xc0,
  0x1b, 0x54, 0xed, 0xbe, 0x83, 0xe1, 0x19, 0xc1, 0x30, 0x0d, 0x3f, 0x40,
  0x16, 0xff, 0xff, 0xff, 0x04, 0x00, 0x00, 0x00, 0x30, 0x00, 0x00, 0x00,
  0x06, 0xe3, 0x24, 0xbe, 0x20, 0x81, 0x16, 0xbf, 0xd6, 0x3d, 0x74, 0x3f,
  0xc8, 0x91, 0xe5, 0xc0, 0x57, 0x0b, 0xdd, 0xbf, 0x0e, 0x84, 0xe4, 0xbd,
  0x5f, 0x68, 0x8e, 0x3f, 0x67, 0xfe, 0x32, 0xbe, 0x42, 0xf9, 0x75, 0xbd,
  0xa9, 0x50, 0x9c, 0x3f, 0xe6, 0xb9, 0x48, 0x3f, 0x48, 0x39, 0x2c, 0x3f,
  0x52, 0xff, 0xff, 0xff, 0x04, 0x00, 0x00, 0x00, 0x10, 0x00, 0x00, 0x00,
  0xeb, 0x2a, 0x6a, 0x3f, 0xf7, 0xe2, 0xf5, 0xbf, 0x67, 0x98, 0x0b, 0x40,
  0xca, 0xfb, 0x12, 0xc0, 0xc8, 0xfb, 0xff, 0xff, 0xcc, 0xfb, 0xff, 0xff,
  0x0f, 0x00, 0x00, 0x00, 0x4d, 0x4c, 0x49, 0x52, 0x20, 0x43, 0x6f, 0x6e,
  0x76, 0x65, 0x72, 0x74, 0x65, 0x64, 0x2e, 0x00, 0x01, 0x00, 0x00, 0x00,
  0x14, 0x00, 0x00, 0x00, 0x00, 0x00, 0x0e, 0x00, 0x18, 0x00, 0x14, 0x00,
  0x10, 0x00, 0x0c, 0x00, 0x08, 0x00, 0x04, 0x00, 0x0e, 0x00, 0x00, 0x00,
  0x14, 0x00, 0x00, 0x00, 0x1c, 0x00, 0x00, 0x00, 0xec, 0x00, 0x00, 0x00,
  0xf0, 0x00, 0x00, 0x00, 0xf4, 0x00, 0x00, 0x00, 0x04, 0x00, 0x00, 0x00,
  0x6d, 0x61, 0x69, 0x6e, 0x00, 0x00, 0x00, 0x00, 0x03, 0x00, 0x00, 0x00,
  0x94, 0x00, 0x00, 0x00, 0x50, 0x00, 0x00, 0x00, 0x14, 0x00, 0x00, 0x00,
  0x00, 0x00, 0x0e, 0x00, 0x1a, 0x00, 0x14, 0x00, 0x10, 0x00, 0x0c, 0x00,
  0x0b, 0x00, 0x04, 0x00, 0x0e, 0x00, 0x00, 0x00, 0x1c, 0x00, 0x00, 0x00,
  0x00, 0x00, 0x00, 0x09, 0x1c, 0x00, 0x00, 0x00, 0x20, 0x00, 0x00, 0x00,
  0x01, 0x00, 0x00, 0x00, 0x00, 0x00, 0x06, 0x00, 0x08, 0x00, 0x04, 0x00,
  0x06, 0x00, 0x00, 0x00, 0x00, 0x00, 0x80, 0x3f, 0x01, 0x00, 0x00, 0x00,
  0x07, 0x00, 0x00, 0x00, 0x01, 0x00, 0x00, 0x00, 0x06, 0x00, 0x00, 0x00,
  0xce, 0xff, 0xff, 0xff, 0x10, 0x00, 0x00, 0x00, 0x00, 0x00, 0x00, 0x08,
  0x0c, 0x00, 0x00, 0x00, 0x10, 0x00, 0x00, 0x00, 0x8c, 0xfc, 0xff, 0xff,
  0x01, 0x00, 0x00, 0x00, 0x06, 0x00, 0x00, 0x00, 0x03, 0x00, 0x00, 0x00,
  0x05, 0x00, 0x00, 0x00, 0x04, 0x00, 0x00, 0x00, 0x01, 0x00, 0x00, 0x00,
  0x00, 0x00, 0x0e, 0x00, 0x16, 0x00, 0x00, 0x00, 0x10, 0x00, 0x0c, 0x00,
  0x0b, 0x00, 0x04, 0x00, 0x0e, 0x00, 0x00, 0x00, 0x18, 0x00, 0x00, 0x00,
  0x00, 0x00, 0x00, 0x08, 0x18, 0x00, 0x00, 0x00, 0x1c, 0x00, 0x00, 0x00,
  0x00, 0x00, 0x06, 0x00, 0x08, 0x00, 0x07, 0x00, 0x06, 0x00, 0x00, 0x00,
  0x00, 0x00, 0x00, 0x01, 0x01, 0x00, 0x00, 0x00, 0x05, 0x00, 0x00, 0x00,
  0x03, 0x00, 0x00, 0x00, 0x00, 0x00, 0x00, 0x00, 0x03, 0x00, 0x00, 0x00,
  0x02, 0x00, 0x00, 0x00, 0x01, 0x00, 0x00, 0x00, 0x07, 0x00, 0x00, 0x00,
  0x01, 0x00, 0x00, 0x00, 0x00, 0x00, 0x00, 0x00, 0x08, 0x00, 0x00, 0x00,
  0xd0, 0x02, 0x00, 0x00, 0x60, 0x02, 0x00, 0x00, 0xf4, 0x01, 0x00, 0x00,
  0xac, 0x01, 0x00, 0x00, 0x60, 0x01, 0x00, 0x00, 0xd8, 0x00, 0x00, 0x00,
  0x60, 0x00, 0x00, 0x00, 0x04, 0x00, 0x00, 0x00, 0x66, 0xfd, 0xff, 0xff,
  0x00, 0x00, 0x00, 0x01, 0x14, 0x00, 0x00, 0x00, 0x1c, 0x00, 0x00, 0x00,
  0x1c, 0x00, 0x00, 0x00, 0x08, 0x00, 0x00, 0x00, 0x34, 0x00, 0x00, 0x00,
  0x02, 0x00, 0x00, 0x00, 0xff, 0xff, 0xff, 0xff, 0x04, 0x00, 0x00, 0x00,
  0x50, 0xfd, 0xff, 0xff, 0x19, 0x00, 0x00, 0x00, 0x53, 0x74, 0x61, 0x74,
  0x65, 0x66, 0x75, 0x6c, 0x50, 0x61, 0x72, 0x74, 0x69, 0x74, 0x69, 0x6f,
  0x6e, 0x65, 0x64, 0x43, 0x61, 0x6c, 0x6c, 0x3a, 0x30, 0x00, 0x00, 0x00,
  0x02, 0x00, 0x00, 0x00, 0x01, 0x00, 0x00, 0x00, 0x04, 0x00, 0x00, 0x00,
  0xbe, 0xfd, 0xff, 0xff, 0x00, 0x00, 0x00, 0x01, 0x14, 0x00, 0x00, 0x00,
  0x1c, 0x00, 0x00, 0x00, 0x1c, 0x00, 0x00, 0x00, 0x07, 0x00, 0x00, 0x00,
  0x50, 0x00, 0x00, 0x00, 0x02, 0x00, 0x00, 0x00, 0xff, 0xff, 0xff, 0xff,
  0x04, 0x00, 0x00, 0x00, 0xa8, 0xfd, 0xff, 0xff, 0x34, 0x00, 0x00, 0x00,
  0x73, 0x65, 0x71, 0x75, 0x65, 0x6e, 0x74, 0x69, 0x61, 0x6c, 0x2f, 0x64,
  0x65, 0x6e, 0x73, 0x65, 0x5f, 0x31, 0x2f, 0x4d, 0x61, 0x74, 0x4d, 0x75,
  0x6c, 0x3b, 0x73, 0x65, 0x71, 0x75, 0x65, 0x6e, 0x74, 0x69, 0x61, 0x6c,
  0x2f, 0x64, 0x65, 0x6e, 0x73, 0x65, 0x5f, 0x31, 0x2f, 0x42, 0x69, 0x61,
  0x73, 0x41, 0x64, 0x64, 0x00, 0x00, 0x00, 0x00, 0x02, 0x00, 0x00, 0x00,
  0x01, 0x00, 0x00, 0x00, 0x04, 0x00, 0x00, 0x00, 0x32, 0xfe, 0xff, 0xff,
  0x00, 0x00, 0x00, 0x01, 0x14, 0x00, 0x00, 0x00, 0x1c, 0x00, 0x00, 0x00,
  0x1c, 0x00, 0x00, 0x00, 0x06, 0x00, 0x00, 0x00, 0x60, 0x00, 0x00, 0x00,
  0x02, 0x00, 0x00, 0x00, 0xff, 0xff, 0xff, 0xff, 0x0c, 0x00, 0x00, 0x00,
  0x1c, 0xfe, 0xff, 0xff, 0x46, 0x00, 0x00, 0x00, 0x73, 0x65, 0x71, 0x75,
  0x65, 0x6e, 0x74, 0x69, 0x61, 0x6c, 0x2f, 0x64, 0x65, 0x6e, 0x73, 0x65,
  0x2f, 0x4d, 0x61, 0x74, 0x4d, 0x75, 0x6c, 0x3b, 0x73, 0x65, 0x71, 0x75,
  0x65, 0x6e, 0x74, 0x69, 0x61, 0x6c, 0x2f, 0x64, 0x65, 0x6e, 0x73, 0x65,
  0x2f, 0x52, 0x65, 0x6c, 0x75, 0x3b, 0x73, 0x65, 0x71, 0x75, 0x65, 0x6e,
  0x74, 0x69, 0x61, 0x6c, 0x2f, 0x64, 0x65, 0x6e, 0x73, 0x65, 0x2f, 0x42,
  0x69, 0x61, 0x73, 0x41, 0x64, 0x64, 0x00, 0x00, 0x02, 0x00, 0x00, 0x00,
  0x01, 0x00, 0x00, 0x00, 0x0c, 0x00, 0x00, 0x00, 0x22, 0xff, 0xff, 0xff,
  0x00, 0x00, 0x00, 0x01, 0x10, 0x00, 0x00, 0x00, 0x10, 0x00, 0x00, 0x00,
  0x05, 0x00, 0x00, 0x00, 0x28, 0x00, 0x00, 0x00, 0x90, 0xfe, 0xff, 0xff,
  0x19, 0x00, 0x00, 0x00, 0x73, 0x65, 0x71, 0x75, 0x65, 0x6e, 0x74, 0x69,
  0x61, 0x6c, 0x2f, 0x64, 0x65, 0x6e, 0x73, 0x65, 0x5f, 0x31, 0x2f, 0x4d,
  0x61, 0x74, 0x4d, 0x75, 0x6c, 0x00, 0x00, 0x00, 0x02, 0x00, 0x00, 0x00,
  0x04, 0x00, 0x00, 0x00, 0x0c, 0x00, 0x00, 0x00, 0x6a, 0xff, 0xff, 0xff,
  0x00, 0x00, 0x00, 0x01, 0x10, 0x00, 0x00, 0x00, 0x10, 0x00, 0x00, 0x00,
  0x04, 0x00, 0x00, 0x00, 0x24, 0x00, 0x00, 0x00, 0xd8, 0xfe, 0xff, 0xff,
  0x17, 0x00, 0x00, 0x00, 0x73, 0x65, 0x71, 0x75, 0x65, 0x6e, 0x74, 0x69,
  0x61, 0x6c, 0x2f, 0x64, 0x65, 0x6e, 0x73, 0x65, 0x2f, 0x4d, 0x61, 0x74,
  0x4d, 0x75, 0x6c, 0x00, 0x02, 0x00, 0x00, 0x00, 0x0c, 0x00, 0x00, 0x00,
  0x0c, 0x00, 0x00, 0x00, 0xae, 0xff, 0xff, 0xff, 0x00, 0x00, 0x00, 0x01,
  0x10, 0x00, 0x00, 0x00, 0x10, 0x00, 0x00, 0x00, 0x03, 0x00, 0x00, 0x00,
  0x34, 0x00, 0x00, 0x00, 0x1c, 0xff, 0xff, 0xff, 0x27, 0x00, 0x00, 0x00,
  0x73, 0x65, 0x71, 0x75, 0x65, 0x6e, 0x74, 0x69, 0x61, 0x6c, 0x2f, 0x64,
  0x65, 0x6e, 0x73, 0x65, 0x2f, 0x42, 0x69, 0x61, 0x73, 0x41, 0x64, 0x64,
  0x2f, 0x52, 0x65, 0x61, 0x64, 0x56, 0x61, 0x72, 0x69, 0x61, 0x62, 0x6c,
  0x65, 0x4f, 0x70, 0x00, 0x01, 0x00, 0x00, 0x00, 0x0c, 0x00, 0x00, 0x00,
  0x00, 0x00, 0x16, 0x00, 0x18, 0x00, 0x14, 0x00, 0x00, 0x00, 0x10, 0x00,
  0x0c, 0x00, 0x08, 0x00, 0x00, 0x00, 0x00, 0x00, 0x00, 0x00, 0x07, 0x00,
  0x16, 0x00, 0x00, 0x00, 0x00, 0x00, 0x00, 0x01, 0x10, 0x00, 0x00, 0x00,
  0x10, 0x00, 0x00, 0x00, 0x02, 0x00, 0x00, 0x00, 0x38, 0x00, 0x00, 0x00,
  0x84, 0xff, 0xff, 0xff, 0x29, 0x00, 0x00, 0x00, 0x73, 0x65, 0x71, 0x75,
  0x65, 0x6e, 0x74, 0x69, 0x61, 0x6c, 0x2f, 0x64, 0x65, 0x6e, 0x73, 0x65,
  0x5f, 0x31, 0x2f, 0x42, 0x69, 0x61, 0x73, 0x41, 0x64, 0x64, 0x2f, 0x52,
  0x65, 0x61, 0x64, 0x56, 0x61, 0x72, 0x69, 0x61, 0x62, 0x6c, 0x65, 0x4f,
  0x70, 0x00, 0x00, 0x00, 0x01, 0x00, 0x00, 0x00, 0x04, 0x00, 0x00, 0x00,
  0x00, 0x00, 0x16, 0x00, 0x1c, 0x00, 0x18, 0x00, 0x00, 0x00, 0x14, 0x00,
  0x10, 0x00, 0x0c, 0x00, 0x00, 0x00, 0x00, 0x00, 0x08, 0x00, 0x07, 0x00,
  0x16, 0x00, 0x00, 0x00, 0x00, 0x00, 0x00, 0x01, 0x14, 0x00, 0x00, 0x00,
  0x20, 0x00, 0x00, 0x00, 0x20, 0x00, 0x00, 0x00, 0x01, 0x00, 0x00, 0x00,
  0x3c, 0x00, 0x00, 0x00, 0x02, 0x00, 0x00, 0x00, 0xff, 0xff, 0xff, 0xff,
  0x0c, 0x00, 0x00, 0x00, 0x04, 0x00, 0x04, 0x00, 0x04, 0x00, 0x00, 0x00,
  0x1d, 0x00, 0x00, 0x00, 0x73, 0x65, 0x72, 0x76, 0x69, 0x6e, 0x67, 0x5f,
  0x64, 0x65, 0x66, 0x61, 0x75, 0x6c, 0x74, 0x5f, 0x64, 0x65, 0x6e, 0x73,
  0x65, 0x5f, 0x69, 0x6e, 0x70, 0x75, 0x74, 0x3a, 0x30, 0x00, 0x00, 0x00,
  0x02, 0x00, 0x00, 0x00, 0x01, 0x00, 0x00, 0x00, 0x0c, 0x00, 0x00, 0x00,
  0x02, 0x00, 0x00, 0x00, 0x20, 0x00, 0x00, 0x00, 0x04, 0x00, 0x00, 0x00,
  0xf4, 0xff, 0xff, 0xff, 0x19, 0x00, 0x00, 0x00, 0x00, 0x00, 0x00, 0x19,
  0x0c, 0x00, 0x0c, 0x00, 0x0b, 0x00, 0x00, 0x00, 0x00, 0x00, 0x04, 0x00,
  0x0c, 0x00, 0x00, 0x00, 0x09, 0x00, 0x00, 0x00, 0x00, 0x00, 0x00, 0x09
};
unsigned int __results_c_code_approach3_mlp_float_tflite_len = 2520;
